073D
0EF6
7E39
1322
0C7C
0EC1
0EE2
0B6E
173A
0FD1
0474
0F9A
79FC
1013
08A6
120B
1486
1060
17A2
1175
0842
0EF5
7D40
10C4
07E2
0B94
0EF3
0A3B
1072
0E7B
0CFB
0E1D
7B87
0E3B
028C
0B1D
0EEC
0751
0D00
12DC
0B52
0A95
7F66
0A4A
0787
0A4D
0F91
0A5D
138D
0C20
10C2
085E
7DD3
0D1D
0730
0276
0B17
04A0
0D1D
1016
0C48
0EEC
7F82
0FF7
03B4
0F21
096B
037D
13E7
0D5F
08C4
13E4
7E6F
0CA5
0735
0729
1526
0103
11AA
0E9C
0B79
1262
7CCD
0D99
07B8
0462
132C
7A86
1299
13B1
0943
14D0
0114
0FF0
07B9
046C
1667
795D
0CEC
10D0
07BB
1330
7B9B
0BFC
0EC9
0A06
129C
7B0E
151B
1150
025C
149B
7BC2
0856
09AD
7E1A
151D
7FF4
197B
1584
0826
172D
77A2
0DA1
0762
7941
17E4
0123
131D
134A
08FF
10C9
76DB
0FA7
0ED7
7923
147B
034A
158C
0F67
06CC
0E49
76C3
1387
151F
7F6B
1040
02E5
1573
0DBD
7FD5
0724
7D67
0BE8
12C1
010C
0E9F
7FF0
0DCA
0AA2
0A62
0731
7ED6
063D
09EB
06E9
0CA7
0867
0C82
06B0
06E6
092B
7D16
0A32
0419
0D2F
0940
1039
0EBF
04AE
0351
0B36
7A83
0A50
0093
0F20
02EC
11D9
0AB2
0FBA
050D
097F
7F1A
02A1
08C3
0D20
7FF6
0DF6
0D59
0472
05B4
05FD
7D5F
066F
7C23
0E24
0481
0F66
0434
0675
0ADA
0948
0054
068E
7B1A
0EE4
0049
00DB
082B
03B4
0212
06D1
00C2
03BD
7D82
0B3F
0804
7FE4
06DE
7F16
095B
019C
0371
03A6
7AE9
0443
08E2
79E0
0C92
021E
0119
04C3
01B3
0299
7C98
7A0E
7F10
73E0
05D3
7A90
015E
0171
7EB6
031B
791D
78DE
04DC
7221
087E
7E37
7EF1
7F6C
7F6A
0197
7EC5
7EDC
0536
71FD
05DF
7F54
7D51
7C9F
7CEF
0628
044E
7B22
7EC3
734F
7D38
7CB4
0174
7CB7
7F4F
04FB
0D4C
04C2
0012
6F87
7EDE
79CE
076D
7D14
7BBA
0576
07A1
017A
7B7B
7140
042F
7DC3
0CC2
7AAF
7F54
06EA
0C97
7B17
0526
7839
7F8C
7E71
0B27
7514
7FEF
05D1
0DCC
7D45
7BC8
7BCE
05D4
768D
115E
78AA
7DD9
0692
0BD3
7FBD
7A9C
75A8
7E8A
788B
0A5A
741F
7FC5
081D
08F0
7E4C
7B1B
741C
01D7
7D96
0A5C
7A68
0063
0754
09DE
0545
7CDB
7556
7748
7632
0E99
75C8
036C
0626
7FCE
03ED
7E06
7667
7E87
771A
091E
7CF8
00CB
02C9
02A1
08F6
7FA3
798F
7AAB
75EB
08A4
7A80
042B
7995
0331
042C
7A36
7743
7D53
787F
06C4
7710
0014
7E02
7C57
083D
7C54
71E6
7E24
7D0E
7C5F
7369
07F4
006B
7C86
056C
7F82
73DB
7A11
7B48
7D97
7B28
040E
7CEB
7A3D
0C30
7FDB
765A
7F8E
79C1
7C26
77AC
0047
01E8
768D
0CD2
7D1B
71E2
7A70
7B45
005A
79F4
01EC
7F2B
7B42
056E
75AB
7761
7A7E
7B74
77E5
791B
00D6
7DDF
77EA
08B0
7B87
7B9C
7CEF
6FE8
79C6
7B8D
7EEF
7B37
7450
05A8
006F
7B35
7E48
72C1
77B5
7775
0031
7AAA
7D51
0447
7888
0191
7FB8
7509
7519
7286
7E7B
7F76
731D
0531
7C7F
7F90
7978
7228
7558
7C6E
019E
7BA4
7B8D
7B14
7B5A
0363
77FF
74C2
777E
758A
028C
0300
74EA
7963
7A5E
010C
7AAE
75FD
74AA
7397
010F
7FA4
7C58
79D9
79FF
7972
7B19
7CB2
7C32
76C9
018F
00B9
79C5
73A4
78D2
7409
7B66
79D8
7EAA
77F0
7D55
7817
7F68
7C06
72E1
7428
7966
7B82
037B
7792
000E
7C2C
7363
7F92
745D
6E78
7D82
750A
034F
7043
00B2
7FC2
7BFF
7FA5
741F
69D3
790B
748A
0364
70EF
0308
7FB9
7995
02E8
7497
6158
7DE1
6DE3
04A5
7144
04E9
02A4
78D8
09F7
72F6
642B
7C8B
6FE0
08E8
6BFB
06CE
7D83
7DA9
0DE5
72A1
6A58
7A72
70A8
0529
75A3
05AB
7F56
7F23
0FF0
76B1
71DE
78CC
733A
0B97
6B09
0458
7EF7
7FBE
1123
7EEE
7B32
7C1F
6D93
0B65
71F2
05E9
7DEC
0376
0D6A
7C9F
00DD
7E2B
71EA
067D
6D60
01C6
0360
05A6
10DD
024F
7F2E
7B46
788F
7DE4
76D0
0328
78FC
0626
0768
7E46
790F
7883
7814
786D
76AE
041D
7FB0
06B4
0901
0012
7E6B
7737
7A19
7FA8
79C9
0298
7E51
03EC
0E15
0305
098A
7D05
765B
0451
7692
0569
7BB7
054D
16AB
7F79
0766
7B8F
7C52
061D
76CB
0A8C
0170
02E6
0DDE
79AB
0D17
7BCD
742B
079B
75BA
05B6
7F4D
018F
1397
7D6D
0963
037C
7750
01BA
748A
0244
7A9C
04DC
0F0F
7806
0888
7919
7D6E
0BFC
7096
0493
01F5
015B
08F9
7D49
7DB0
790B
7F14
05A2
6F9B
0364
0200
019F
0D35
7A28
711E
77D7
7731
0585
71FF
08D8
7F94
015D
06CA
74D0
6D73
77B7
74C3
0507
756B
0970
7CC5
7FDF
08F6
7327
72E5
7A96
7588
05ED
768E
08CB
0273
7C47
0FD6
7559
7448
7EBC
716C
074A
73D8
05DF
002E
0230
0F54
7A59
7ABE
7CF8
6F21
0CD9
7728
0880
00E6
04E8
0E1E
7E16
7E67
7859
79F4
0BC3
6FD2
0988
02E1
0710
11B5
02B7
0152
7ADF
78D2
0A9A
71AA
0FD5
0051
0683
11E6
7BFA
00A9
7B4D
788D
0BCD
7180
0EB6
065F
0CA9
1771
7A3F
05FF
79E3
765A
0B5B
736E
101E
0435
0DF4
1E87
0339
04A5
792F
7358
0B70
7344
0B6C
7B84
0529
1C87
74EE
0178
7CA7
749B
07D4
6BF8
0C0F
0245
046C
1959
781C
048E
7A15
7A75
07B2
7045
0D22
0228
02CE
1096
7D9D
05C5
7759
77B8
0555
741E
0CD1
7E0C
7F2B
0F1B
7D3F
04EE
7F2D
73F6
089E
765D
0B56
7E9A
09D2
07DE
789D
7EDA
7895
73FE
05CB
75F4
0F6F
7CD1
0603
0D59
7D79
04E2
7A97
7650
0CEE
7388
121E
7642
0887
0B01
7F80
7B75
77F2
78A8
0A4F
753A
1003
7337
0B0E
0ACB
7F6D
0368
7777
7B8A
091C
76A9
0DA3
7ABB
0608
0E52
0254
0852
73AD
7586
0853
7762
0DCD
7C95
0344
1354
7DDF
051D
7914
7B7E
093E
7503
0BE0
7DB2
02E7
10C7
009A
0375
76C7
7B25
058C
7170
0CDE
7AE3
7DA5
127D
7D3B
7D55
7ACE
7242
04B8
779D
0E8C
7C8B
79B3
0B6D
7766
7EBC
7716
719E
02C6
733F
12A1
784D
7A93
0A9F
7714
0025
7323
7332
0455
7458
109E
73F3
7C6D
0476
6F2D
01BF
701D
7367
03D7
70EB
0FEC
7754
7EDF
07CA
73BF
054E
72FB
74EF
0503
71A0
127A
7E0C
05E6
0850
7117
79BD
74EA
7519
0876
6DCF
0F26
791E
01BE
08D0
781A
748E
7877
760D
0604
7201
1198
7E72
02B0
04ED
7422
7361
777D
77D4
004D
6F63
0EB4
7864
7E2A
02EF
7A7B
6DF3
778A
71EE
7E3B
7573
0ED5
7A43
79D5
7E75
7ACB
6B76
736E
7521
7BB1
73FE
0B54
782D
7412
049F
7E14
7B9B
7437
74D6
7C8A
7399
0E7D
79DE
7C11
0478
79DE
0994
7134
708D
7DCD
71E8
1304
7442
7C12
02BA
7AF0
0C6A
71CF
7165
7B3D
724D
0FFE
730F
7962
0880
7C2D
06E6
6F47
73EF
7BD1
6CE4
1122
7024
7AD5
04C4
78DF
05A1
7213
791A
798D
75FD
0FAC
73D0
7B9C
08DB
7A35
7BD5
7314
782B
7F5B
784F
1443
7DD6
7DD3
0CCF
7E32
7A34
74FD
74D5
02FE
745D
1838
7BF2
0134
0E43
79AB
7F52
72AB
764C
01BC
78D5
1BD9
78DC
7F62
0DB6
7806
7DC2
7425
7699
0297
77AE
17ED
7BB3
043A
0E14
7947
7B6D
7586
777D
0615
75BC
1B0E
7E3E
04D7
0FA7
7524
04FF
766A
77F8
0318
7926
1E79
7ACC
00FF
0CC1
76EF
05A1
7A7E
7957
054E
7603
1EB6
7F01
7E99
0AB2
79F9
0229
7F7D
7A08
0354
77C3
1DD3
02E2
00CA
0694
7D54
05EB
7815
786D
02F0
7851
148C
0001
7E5C
0CA2
0013
042D
7833
7949
7FDF
7846
18D5
7A81
010F
0F69
04AD
0494
7AF2
7C5E
04FB
77BF
1486
7B13
031C
0B7B
7D08
0627
77D2
79AB
0637
77C5
1A19
7ACD
0105
0F0E
7958
03FB
7D30
7D94
02A6
784F
1714
7F0F
019F
0DA6
7A56
047B
7BAB
7C83
0626
7BB7
1473
016D
07E0
08BE
0017
011C
7FD1
7E6E
083B
00AE
11B1
038F
03B9
0B3E
79D0
07F6
7D18
7B2D
0494
7DBC
118C
7FE5
0088
0EDB
002F
0998
7D45
7BD4
0888
7F0C
17B3
7FF1
7FB9
0D41
01EC
0CE4
0207
0237
072A
7EB2
15A6
7F17
03BE
0E0E
0491
0EA6
7F08
02EC
0737
0179
17FA
7EF6
02D7
0B80
046B
07E6
7EFE
7CF9
0828
02C5
1577
0063
0296
1465
020C
0A68
7F3B
7EC3
0BDE
00BE
1352
0168
041E
105B
03FF
0B25
01FA
0135
0782
7FB1
124F
7F89
0464
132C
05A2
083F
01F6
0162
06E5
7FD6
1114
7F3C
01AB
0F33
0786
064D
0220
009F
03C5
7E8B
12DE
005C
070E
0F28
01BF
0C91
00A2
0322
04B7
7F64
1011
02AE
051B
09F7
021D
0E66
7DC7
03A5
04E5
0067
115D
0187
00E2
09DE
0483
0F08
7DC0
0154
02AC
0128
1032
01C3
03DF
0CC2
0571
04B5
7F85
0225
05CF
0104
122C
0043
059E
0BFA
04AB
0A5B
7F91
03E0
09C8
00EE
142E
02DA
04F4
0ABD
00D9
0305
0586
05BE
0826
0245
1B17
7E9D
05C2
0EBB
01A4
7FCF
0604
0716
0802
0048
1A39
03DC
038F
0CF8
0780
028A
041C
024A
0741
0132
183D
007A
00A4
128C
01D9
0A4B
0016
012E
04AD
00EB
1832
005C
0255
1319
0059
0BFA
0255
03AF
0643
012A
1756
056C
04C8
0E89
0074
0C7D
01A0
01DB
0892
7E78
1A5C
039F
0740
0DC8
0035
0B17
0008
7F03
09A2
7D6A
1C53
7F4D
0276
0DBB
7D0D
0CFB
7A67
0214
0AA0
7E49
1F17
0596
04E4
0B5E
7F79
0E10
7EE9
0135
0850
7B38
1937
7FC0
07AC
08DA
0231
7CF8
7D18
7E76
087B
7BC0
122A
0174
0296
0834
01E9
7EEA
0293
00D2
0793
7E45
15B6
01B8
02FB
0818
00F7
7DF9
0203
01B5
067F
030C
1359
01FA
04BF
08D4
045F
01E5
0196
7E7A
06F9
0134
16A8
04C2
022F
0D9A
03BD
0696
00C3
7EEB
09FB
02A6
15F2
076B
02DA
0ABD
0392
03FD
005C
7D1A
058B
0376
20BD
014D
027D
0D86
7EF4
05E4
7D8F
022C
0426
7F45
1A34
01C9
02F4
1249
02BF
0654
7E54
7D97
0573
002B
1AEB
000D
0056
07C9
0162
0426
7E48
7DA1
0816
7D88
1961
7F37
03FA
0D73
7FC4
05BA
003F
03DB
00F6
7F17
198B
00CE
0144
0F32
069C
05C4
7EF0
0698
063E
7C40
16C8
033B
0148
0EBF
0243
005A
7D02
042F
01CB
7DB9
1516
7FFF
7E6D
0452
0873
013E
7DDC
0345
032F
7F9A
14C0
045B
7E81
088F
028F
7C2E
7C23
0360
057A
0198
16F2
7F49
03DF
0563
002E
7CBF
022F
7E38
06E1
028E
1664
0195
03A9
0347
022C
7EFB
7E52
02A0
0075
7E2E
1633
004A
0203
04A9
0015
7D4A
7EBB
0075
0215
0183
1895
01A7
0399
08E9
00F7
78B0
7FFE
026B
0076
021D
11D1
0652
7E49
0383
7E96
7C66
0142
0045
02AF
02E5
16DB
06A4
7F1A
013D
01DD
7A5C
0475
0515
0624
005B
1671
04A9
7FFA
05E9
06B3
7C99
006B
0210
0476
02C2
0F8C
02CF
7D96
0730
7FFA
7F9B
0249
03D7
06EC
010A
194E
0505
017D
056E
0471
04D9
7E17
012E
0075
7F15
1B87
05AD
00E6
08B8
7D7D
02B3
7ECE
0026
0035
0108
19B3
030D
02AD
0948
7F7E
7E12
7D89
01B1
7E4F
00E4
19DD
001C
028D
00E0
018B
7CD0
042A
7E88
0107
7F36
1CB3
0225
7F9B
7DEF
7E0E
7A7E
01DF
0124
0424
00C0
17F1
0201
01BA
000F
0096
012C
7E66
02C4
0318
7E5F
1C54
070E
01D0
7F89
7FCA
7D19
007E
011A
06E2
0095
1D5A
0511
7EBF
05E6
0081
7BE5
00B0
7B18
0430
7CCB
1B6B
0464
0090
024E
01B8
7D62
7FC6
7CB6
00CD
7ABE
1E2E
007D
7E5A
0289
7B6D
7F10
7D0A
7B99
0284
7D06
1C92
7FD2
7D3B
0333
0140
0184
7B83
016E
02D9
7EB1
1AC3
7E22
7F6A
0436
7EEA
00EE
7DDC
7BB4
7CBC
7EB2
1D04
0133
02CA
00CE
02E9
7EE5
7BED
043F
0220
7B3B
1409
7E98
026A
0043
7C9D
7A2D
7DA0
0083
7DFB
7A43
182D
7F70
00EF
02F2
7FF4
792E
7B47
7EBB
0217
7D0B
155C
0220
7CD7
023C
7FB6
7CB5
7C3C
02C7
00AD
7F63
13F5
0015
7AE4
00A0
7E91
7B57
00AD
00E2
03E8
00F4
18B7
01E8
00E6
7F99
7FF8
00DC
7CD8
0169
7F1F
0313
1AB2
02A0
7CC7
0184
0348
059A
0131
7DD2
01F2
04EA
1909
027D
7F3A
0118
7F04
7FEF
7DE6
017F
015D
012E
16B2
0384
7D21
7F32
7AAB
0578
7C01
7E61
0342
0269
1B9B
0059
7E2D
0262
001A
04AB
02E4
7D35
0365
7C83
1E05
7E70
7D7F
0269
7D64
00B1
7DD9
7D29
01D1
0133
1D02
0070
7E93
081D
7E6D
0043
7DCD
7D67
0285
001C
1F23
7CF4
00B1
03D2
7D48
7A33
7F6A
7FC7
7E4C
7DE4
1B15
0248
0310
7975
0265
7A14
00C2
7DA8
7D7F
00C7
1F25
7F46
7F66
7AA3
037C
7DD0
009E
7E57
7FAA
7D7E
1C29
7B86
7D47
7DF1
00C9
7A70
7FE0
7F9E
7E15
002D
1F83
7BA4
7FD7
02B7
7E15
7AFC
7E10
0007
7D76
001C
1E0B
7A42
7B6C
7C1B
021F
7AF9
0030
005C
7A8E
0280
1737
7E21
7E7D
0317
0121
022D
7CF5
0168
7C4C
7F0F
1729
7CBF
7FA3
0315
0044
7D22
0058
03A4
7FB0
00E1
193D
0130
7874
06CD
7D8B
0440
7EDE
7EB7
072E
0253
19DF
7ACA
7996
01F6
0033
0144
0229
7F4C
7EFB
02F9
15E9
7DBD
7A03
0279
7ED2
001F
00EB
7D4F
0204
0133
133E
7D92
7A24
060B
7E87
0023
7C21
7FB3
7FBD
0173
12C6
7B72
7934
014F
0082
0486
0207
7F75
7B56
0116
196E
7D17
7E12
7FA9
7AB6
7ED9
02C1
00C4
7BCD
7CCC
18D0
79A1
7CCA
0584
7DBC
0403
7DF6
01CB
7D61
7E86
14C6
7C81
7E90
009B
7FA7
7D38
7E18
0186
7F85
7C1A
1338
7E4B
7A94
0232
7E4C
0146
0253
0148
7B6E
0300
1704
7FFA
7D2B
03F1
00AC
018F
7F7A
7E9F
7E10
0111
1747
7C93
7D18
009A
7FB2
0403
7D04
7DF7
7AD8
7F5E
135F
7B81
7B8B
7D80
7FF8
0175
7EEC
7FDB
7DB2
7FD8
1560
7C26
7ABC
052C
7F34
0434
7AD1
0018
7DD0
0094
11D9
7A90
792E
09BE
7F39
06C9
7DDD
03DC
7D5C
0120
142D
7C9F
7B2D
01E9
7F26
7E2A
7EA4
0073
02A4
7D1A
17D7
7BB4
76B9
043F
79EC
0070
7ECA
7FA1
7A16
7E43
1DB2
7B58
75E9
09A8
7CE0
05A4
0394
7BCC
7D81
7F8B
1C67
7D08
7B3E
7F81
7A7F
7C0D
7EFC
7A8D
7E34
7E5C
219F
028C
7AF1
039C
7974
7E05
012D
7E67
7F65
0200
2078
7A99
7B92
0142
797E
7CB7
00AF
7E72
7CF6
7EB2
2050
0202
7EDE
0254
781B
7C17
7D2E
7CCD
7D47
7C0F
1CA9
7AB1
7CD5
0779
7A09
7BF8
7FDA
7845
7DCD
7F07
2214
790A
7C28
01F1
7D23
00E6
7A55
79B6
7FDD
7B18
1F42
7BF4
7D67
0404
7F38
0759
7BE9
7B80
7C06
7D05
224F
7B07
7A22
0292
769D
054C
774B
7D40
7F36
7BE1
23D7
7B2F
7A32
0280
7F64
0013
7DD6
7CBF
7876
7B8E
1ABA
795A
7B77
7D8A
79F2
019D
7CE4
7BC2
7B1D
7C33
1B0C
7C28
7CA2
7CA4
7C7D
7A62
7EDA
7CD2
7A19
7B81
14E3
76E0
7970
7B91
00BB
7C72
7BA6
7D35
7CA5
7ACE
1AA0
768E
7AAA
0044
019E
6E32
00EB
7B9C
7F07
7FD4
1B06
71C7
79A8
00B5
7DDB
6EA9
79D1
7B0C
01C1
77DB
1FA7
7030
7EF8
03E5
7D9E
72B1
791D
7800
7D3A
78A3
1EE5
7203
0044
05C7
7BB5
7E5E
7353
78E5
7B1D
7ADF
22DE
734E
7BD0
0249
7DB6
7E70
75F0
76F5
7EA1
72B0
23EF
7366
796D
0498
783C
7DB4
77AA
78C2
7AE7
741E
203F
710A
7359
0391
7907
054C
758B
7562
79B1
74D3
2010
7382
710F
0368
722E
0194
7449
74D4
78D1
74A5
2196
752C
6595
7FF1
75C9
7E90
738D
749A
6FE5
7835
1E10
714D
635A
76A9
6F8F
7F2A
7507
76C2
70CF
79E2
1946
7277
5C73
7259
6DE7
72DB
74AC
7542
6B7F
7C9B
13B2
6BE4
55CA
66C8
6DC8
67EC
73AF
742C
